TRT-7000-EntropyCalibration2
input_1: 3c010a14
conv1/convolution: 3d34d114
conv1/BiasAdd: 3d34d114
bn_conv1/batchnorm/mul_1: 3dddee4e
bn_conv1/batchnorm/add_1: 3d96bfed
activation_1/Relu: 3deb2524
block_1a_conv_1/convolution: 3e8765c3
block_1a_conv_1/BiasAdd: 3e8765c3
block_1a_bn_1/batchnorm/mul_1: 3dde7e19
block_1a_bn_1/batchnorm/add_1: 3dd8581c
block_1a_relu_1/Relu: 3d963edb
block_1a_conv_2/convolution: 3e049c87
block_1a_conv_2/BiasAdd: 3e049c87
block_1a_bn_2/batchnorm/mul_1: 3dc028b1
block_1a_bn_2/batchnorm/add_1: 3dd1a5a2
block_1a_conv_shortcut/convolution: 3dc77e03
block_1a_conv_shortcut/BiasAdd: 3dc77e03
block_1a_bn_shortcut/batchnorm/mul_1: 3da6f97b
block_1a_bn_shortcut/batchnorm/add_1: 3d7c5e6e
add_1/add: 3dc53c89
block_1a_relu/Relu: 3d97fece
block_1b_conv_1/convolution: 3e03a975
block_1b_conv_1/BiasAdd: 3e03a975
block_1b_bn_1/batchnorm/mul_1: 3da69e68
block_1b_bn_1/batchnorm/add_1: 3d856cd5
block_1b_relu_1/Relu: 3d8bebda
block_1b_conv_2/convolution: 3daaec14
block_1b_conv_2/BiasAdd: 3daaec14
block_1b_bn_2/batchnorm/mul_1: 3db81720
block_1b_bn_2/batchnorm/add_1: 3dae60ce
add_2/add: 3dae875b
block_1b_relu/Relu: 3dc77184
block_2a_conv_1/convolution: 3e0be1ea
block_2a_conv_1/BiasAdd: 3e0be1ea
block_2a_bn_1/batchnorm/mul_1: 3d8da4e7
block_2a_bn_1/batchnorm/add_1: 3d60544b
block_2a_relu_1/Relu: 3d8c5025
block_2a_conv_2/convolution: 3d9ac104
block_2a_conv_2/BiasAdd: 3d9ac104
block_2a_bn_2/batchnorm/mul_1: 3d92f045
block_2a_bn_2/batchnorm/add_1: 3d801d9d
block_2a_conv_shortcut/convolution: 3d4a0960
block_2a_conv_shortcut/BiasAdd: 3d4a0960
block_2a_bn_shortcut/batchnorm/mul_1: 3d49181c
block_2a_bn_shortcut/batchnorm/add_1: 3d4a3f98
add_3/add: 3da3041c
block_2a_relu/Relu: 3da23023
block_2b_conv_1/convolution: 3e00541a
block_2b_conv_1/BiasAdd: 3e00541a
block_2b_bn_1/batchnorm/mul_1: 3d729839
block_2b_bn_1/batchnorm/add_1: 3d26418d
block_2b_relu_1/Relu: 3d2ebfad
block_2b_conv_2/convolution: 3d66cf1d
block_2b_conv_2/BiasAdd: 3d66cf1d
block_2b_bn_2/batchnorm/mul_1: 3d99c564
block_2b_bn_2/batchnorm/add_1: 3d79d59a
add_4/add: 3d9c80c6
block_2b_relu/Relu: 3db786d3
block_3a_conv_1/convolution: 3df8482a
block_3a_conv_1/BiasAdd: 3df8482a
block_3a_bn_1/batchnorm/mul_1: 3d75586b
block_3a_bn_1/batchnorm/add_1: 3d124b1d
block_3a_relu_1/Relu: 3d6db53f
block_3a_conv_2/convolution: 3d41d799
block_3a_conv_2/BiasAdd: 3d41d799
block_3a_bn_2/batchnorm/mul_1: 3d917e6d
block_3a_bn_2/batchnorm/add_1: 3d66f0e7
block_3a_conv_shortcut/convolution: 3d28c04a
block_3a_conv_shortcut/BiasAdd: 3d28c04a
block_3a_bn_shortcut/batchnorm/mul_1: 3d51cdf5
block_3a_bn_shortcut/batchnorm/add_1: 3ce6d9c4
add_5/add: 3d6ce526
block_3a_relu/Relu: 3da6fb1b
block_3b_conv_1/convolution: 3dc39b67
block_3b_conv_1/BiasAdd: 3dc39b67
block_3b_bn_1/batchnorm/mul_1: 3d9fe901
block_3b_bn_1/batchnorm/add_1: 3d3e2ee6
block_3b_relu_1/Relu: 3d868890
block_3b_conv_2/convolution: 3d166513
block_3b_conv_2/BiasAdd: 3d166513
block_3b_bn_2/batchnorm/mul_1: 3d9a7e53
block_3b_bn_2/batchnorm/add_1: 3d69d677
add_6/add: 3d5828c1
block_3b_relu/Relu: 3dbce0e0
block_4a_conv_1/convolution: 3df635ab
block_4a_conv_1/BiasAdd: 3df635ab
block_4a_bn_1/batchnorm/mul_1: 3da7f397
block_4a_bn_1/batchnorm/add_1: 3d0c4f33
block_4a_relu_1/Relu: 3da41d23
block_4a_conv_2/convolution: 3d953007
block_4a_conv_2/BiasAdd: 3d953007
block_4a_bn_2/batchnorm/mul_1: 3d8340a7
block_4a_bn_2/batchnorm/add_1: 3d7e7a29
block_4a_conv_shortcut/convolution: 3d72da6b
block_4a_conv_shortcut/BiasAdd: 3d72da6b
block_4a_bn_shortcut/batchnorm/mul_1: 3d6c98ae
block_4a_bn_shortcut/batchnorm/add_1: 3d1aae1f
add_7/add: 3d4a745c
block_4a_relu/Relu: 3e01b168
block_4b_conv_1/convolution: 3e5cc8e0
block_4b_conv_1/BiasAdd: 3e5cc8e0
block_4b_bn_1/batchnorm/mul_1: 3d9780b7
block_4b_bn_1/batchnorm/add_1: 3d287a36
block_4b_relu_1/Relu: 3da3b3fc
block_4b_conv_2/convolution: 3e033be4
block_4b_conv_2/BiasAdd: 3e033be4
block_4b_bn_2/batchnorm/mul_1: 3dab5812
block_4b_bn_2/batchnorm/add_1: 3d8b5629
add_8/add: 3da08554
block_4b_relu/Relu: 3e2efaa4
output_bbox/convolution: 3e225fb6
output_bbox/BiasAdd: 3e47e791
output_cov/convolution: 3e6cdfef
output_cov/BiasAdd: 3e7116f4
output_cov/Sigmoid: 3c01f3c5
