TRT-7000-EntropyCalibration2
input_1: 3c010a14
conv1/convolution: 3d34f24a
conv1/BiasAdd: 3d34f24a
bn_conv1/batchnorm/mul_1: 3ddcf4cc
bn_conv1/batchnorm/add_1: 3db48393
activation_1/Relu: 3de44898
block_1a_conv_1/convolution: 3e87660c
block_1a_conv_1/BiasAdd: 3e87660c
block_1a_bn_1/batchnorm/mul_1: 3df77b65
block_1a_bn_1/batchnorm/add_1: 3dca4d07
block_1a_relu_1/Relu: 3d9a38a2
block_1a_conv_2/convolution: 3df4d4ba
block_1a_conv_2/BiasAdd: 3df4d4ba
block_1a_bn_2/batchnorm/mul_1: 3da7a3e0
block_1a_bn_2/batchnorm/add_1: 3da3dee2
block_1a_conv_shortcut/convolution: 3dcfb94d
block_1a_conv_shortcut/BiasAdd: 3dcfb94d
block_1a_bn_shortcut/batchnorm/mul_1: 3da78950
block_1a_bn_shortcut/batchnorm/add_1: 3dd115e1
add_1/add: 3dc44690
block_1a_relu/Relu: 3db0ca14
block_1b_conv_1/convolution: 3e03f03e
block_1b_conv_1/BiasAdd: 3e03f03e
block_1b_bn_1/batchnorm/mul_1: 3da2e880
block_1b_bn_1/batchnorm/add_1: 3d855035
block_1b_relu_1/Relu: 3d903f23
block_1b_conv_2/convolution: 3da9a30c
block_1b_conv_2/BiasAdd: 3da9a30c
block_1b_bn_2/batchnorm/mul_1: 3db853e1
block_1b_bn_2/batchnorm/add_1: 3dade24f
add_2/add: 3dae816e
block_1b_relu/Relu: 3dc78a0d
block_2a_conv_1/convolution: 3e0b31a7
block_2a_conv_1/BiasAdd: 3e0b31a7
block_2a_bn_1/batchnorm/mul_1: 3d8557fa
block_2a_bn_1/batchnorm/add_1: 3d617c0d
block_2a_relu_1/Relu: 3d8377db
block_2a_conv_2/convolution: 3d977f85
block_2a_conv_2/BiasAdd: 3d977f85
block_2a_bn_2/batchnorm/mul_1: 3d92c747
block_2a_bn_2/batchnorm/add_1: 3d80536c
block_2a_conv_shortcut/convolution: 3d588b31
block_2a_conv_shortcut/BiasAdd: 3d588b31
block_2a_bn_shortcut/batchnorm/mul_1: 3d5621db
block_2a_bn_shortcut/batchnorm/add_1: 3d5de93d
add_3/add: 3da282e2
block_2a_relu/Relu: 3da080f3
block_2b_conv_1/convolution: 3df9cc9e
block_2b_conv_1/BiasAdd: 3df9cc9e
block_2b_bn_1/batchnorm/mul_1: 3d8089e8
block_2b_bn_1/batchnorm/add_1: 3d127368
block_2b_relu_1/Relu: 3d30e531
block_2b_conv_2/convolution: 3d408955
block_2b_conv_2/BiasAdd: 3d408955
block_2b_bn_2/batchnorm/mul_1: 3d984c49
block_2b_bn_2/batchnorm/add_1: 3d6fea5f
add_4/add: 3db2ddfc
block_2b_relu/Relu: 3db160a0
block_3a_conv_1/convolution: 3dee19a6
block_3a_conv_1/BiasAdd: 3dee19a6
block_3a_bn_1/batchnorm/mul_1: 3d7339c6
block_3a_bn_1/batchnorm/add_1: 3d090950
block_3a_relu_1/Relu: 3d6a9e02
block_3a_conv_2/convolution: 3d378e34
block_3a_conv_2/BiasAdd: 3d378e34
block_3a_bn_2/batchnorm/mul_1: 3d881406
block_3a_bn_2/batchnorm/add_1: 3d2e1df2
block_3a_conv_shortcut/convolution: 3d29816a
block_3a_conv_shortcut/BiasAdd: 3d298169
block_3a_bn_shortcut/batchnorm/mul_1: 3d5243ea
block_3a_bn_shortcut/batchnorm/add_1: 3cf2aced
add_5/add: 3d52e933
block_3a_relu/Relu: 3d985d0c
block_3b_conv_1/convolution: 3da5e154
block_3b_conv_1/BiasAdd: 3da5e154
block_3b_bn_1/batchnorm/mul_1: 3d9e9a67
block_3b_bn_1/batchnorm/add_1: 3d1ec1c3
block_3b_relu_1/Relu: 3d7e0b87
block_3b_conv_2/convolution: 3d055655
block_3b_conv_2/BiasAdd: 3d055655
block_3b_bn_2/batchnorm/mul_1: 3d93bd6e
block_3b_bn_2/batchnorm/add_1: 3d57a19d
add_6/add: 3d68d933
block_3b_relu/Relu: 3db7e200
block_4a_conv_1/convolution: 3de50c0c
block_4a_conv_1/BiasAdd: 3de50c0c
block_4a_bn_1/batchnorm/mul_1: 3db268e5
block_4a_bn_1/batchnorm/add_1: 3ced3a20
block_4a_relu_1/Relu: 3da92255
block_4a_conv_2/convolution: 3d7f857b
block_4a_conv_2/BiasAdd: 3d7f857b
block_4a_bn_2/batchnorm/mul_1: 3d6d8fe5
block_4a_bn_2/batchnorm/add_1: 3d1b3528
block_4a_conv_shortcut/convolution: 3d9992b0
block_4a_conv_shortcut/BiasAdd: 3d9992b0
block_4a_bn_shortcut/batchnorm/mul_1: 3d6de1d1
block_4a_bn_shortcut/batchnorm/add_1: 3d1b0fbd
add_7/add: 3d871906
block_4a_relu/Relu: 3e0642b9
block_4b_conv_1/convolution: 3e46f6bc
block_4b_conv_1/BiasAdd: 3e46f6bc
block_4b_bn_1/batchnorm/mul_1: 3d98131e
block_4b_bn_1/batchnorm/add_1: 3d29af4a
block_4b_relu_1/Relu: 3da2f93f
block_4b_conv_2/convolution: 3de55c12
block_4b_conv_2/BiasAdd: 3de55c12
block_4b_bn_2/batchnorm/mul_1: 3d9d7749
block_4b_bn_2/batchnorm/add_1: 3d8bdfed
add_8/add: 3db39037
block_4b_relu/Relu: 3e337689
output_bbox/convolution: 3e26192d
output_bbox/BiasAdd: 3e0cad70
output_cov/convolution: 3e6529fd
output_cov/BiasAdd: 3e632c81
output_cov/Sigmoid: 3c051a2a
